#pragma once

#ifdef __has_attribute
#define HAVE_ATTRIBUTE(x) __has_attribute(x)
#else
#define HAVE_ATTRIBUTE(x) 0
#endif
#if HAVE_ATTRIBUTE(aligned) || (defined(__GNUC__) && !defined(__clang__))
#define DATA_ALIGN_ATTRIBUTE __attribute__((aligned(4)))
#else
#define DATA_ALIGN_ATTRIBUTE
#endif

// automatically configure network
#define TF_NUM_INPUTS 3
#define TF_NUM_OUTPUTS 3
#define TF_NUM_OPS 2
#define TF_OP_FULLYCONNECTED

/** model size = 4932 bytes **/
const unsigned char PlantHealth[] DATA_ALIGN_ATTRIBUTE = {
  0x1c, 0x00, 0x00, 0x00, 0x54, 0x46, 0x4c, 0x33, 0x14, 0x00, 0x20, 0x00,
  0x1c, 0x00, 0x18, 0x00, 0x14, 0x00, 0x10, 0x00, 0x0c, 0x00, 0x00, 0x00,
  0x08, 0x00, 0x04, 0x00, 0x14, 0x00, 0x00, 0x00, 0x1c, 0x00, 0x00, 0x00,
  0x98, 0x00, 0x00, 0x00, 0xf0, 0x00, 0x00, 0x00, 0x1c, 0x0d, 0x00, 0x00,
  0x2c, 0x0d, 0x00, 0x00, 0xe0, 0x12, 0x00, 0x00, 0x03, 0x00, 0x00, 0x00,
  0x01, 0x00, 0x00, 0x00, 0x10, 0x00, 0x00, 0x00, 0x00, 0x00, 0x0a, 0x00,
  0x10, 0x00, 0x0c, 0x00, 0x08, 0x00, 0x04, 0x00, 0x0a, 0x00, 0x00, 0x00,
  0x0c, 0x00, 0x00, 0x00, 0x1c, 0x00, 0x00, 0x00, 0x3c, 0x00, 0x00, 0x00,
  0x0f, 0x00, 0x00, 0x00, 0x73, 0x65, 0x72, 0x76, 0x69, 0x6e, 0x67, 0x5f,
  0x64, 0x65, 0x66, 0x61, 0x75, 0x6c, 0x74, 0x00, 0x01, 0x00, 0x00, 0x00,
  0x04, 0x00, 0x00, 0x00, 0x90, 0xff, 0xff, 0xff, 0x0a, 0x00, 0x00, 0x00,
  0x04, 0x00, 0x00, 0x00, 0x08, 0x00, 0x00, 0x00, 0x6f, 0x75, 0x74, 0x70,
  0x75, 0x74, 0x5f, 0x30, 0x00, 0x00, 0x00, 0x00, 0x01, 0x00, 0x00, 0x00,
  0x04, 0x00, 0x00, 0x00, 0xca, 0xf2, 0xff, 0xff, 0x04, 0x00, 0x00, 0x00,
  0x0c, 0x00, 0x00, 0x00, 0x6b, 0x65, 0x72, 0x61, 0x73, 0x5f, 0x74, 0x65,
  0x6e, 0x73, 0x6f, 0x72, 0x00, 0x00, 0x00, 0x00, 0x02, 0x00, 0x00, 0x00,
  0x34, 0x00, 0x00, 0x00, 0x04, 0x00, 0x00, 0x00, 0xdc, 0xff, 0xff, 0xff,
  0x0d, 0x00, 0x00, 0x00, 0x04, 0x00, 0x00, 0x00, 0x13, 0x00, 0x00, 0x00,
  0x43, 0x4f, 0x4e, 0x56, 0x45, 0x52, 0x53, 0x49, 0x4f, 0x4e, 0x5f, 0x4d,
  0x45, 0x54, 0x41, 0x44, 0x41, 0x54, 0x41, 0x00, 0x08, 0x00, 0x0c, 0x00,
  0x08, 0x00, 0x04, 0x00, 0x08, 0x00, 0x00, 0x00, 0x0c, 0x00, 0x00, 0x00,
  0x04, 0x00, 0x00, 0x00, 0x13, 0x00, 0x00, 0x00, 0x6d, 0x69, 0x6e, 0x5f,
  0x72, 0x75, 0x6e, 0x74, 0x69, 0x6d, 0x65, 0x5f, 0x76, 0x65, 0x72, 0x73,
  0x69, 0x6f, 0x6e, 0x00, 0x0e, 0x00, 0x00, 0x00, 0x28, 0x0c, 0x00, 0x00,
  0x20, 0x0c, 0x00, 0x00, 0x50, 0x0b, 0x00, 0x00, 0x40, 0x03, 0x00, 0x00,
  0x24, 0x03, 0x00, 0x00, 0xd4, 0x02, 0x00, 0x00, 0x44, 0x02, 0x00, 0x00,
  0xb4, 0x00, 0x00, 0x00, 0xac, 0x00, 0x00, 0x00, 0xa4, 0x00, 0x00, 0x00,
  0x9c, 0x00, 0x00, 0x00, 0x94, 0x00, 0x00, 0x00, 0x74, 0x00, 0x00, 0x00,
  0x04, 0x00, 0x00, 0x00, 0x7e, 0xf3, 0xff, 0xff, 0x04, 0x00, 0x00, 0x00,
  0x60, 0x00, 0x00, 0x00, 0x10, 0x00, 0x00, 0x00, 0x00, 0x00, 0x00, 0x00,
  0x08, 0x00, 0x0e, 0x00, 0x08, 0x00, 0x04, 0x00, 0x08, 0x00, 0x00, 0x00,
  0x10, 0x00, 0x00, 0x00, 0x24, 0x00, 0x00, 0x00, 0x00, 0x00, 0x06, 0x00,
  0x08, 0x00, 0x04, 0x00, 0x06, 0x00, 0x00, 0x00, 0x04, 0x00, 0x00, 0x00,
  0x00, 0x00, 0x00, 0x00, 0x0c, 0x00, 0x18, 0x00, 0x14, 0x00, 0x10, 0x00,
  0x0c, 0x00, 0x04, 0x00, 0x0c, 0x00, 0x00, 0x00, 0x5a, 0x0c, 0xba, 0x78,
  0x03, 0x76, 0xf7, 0x29, 0x02, 0x00, 0x00, 0x00, 0x02, 0x00, 0x00, 0x00,
  0x04, 0x00, 0x00, 0x00, 0x06, 0x00, 0x00, 0x00, 0x32, 0x2e, 0x31, 0x38,
  0x2e, 0x30, 0x00, 0x00, 0xea, 0xf3, 0xff, 0xff, 0x04, 0x00, 0x00, 0x00,
  0x10, 0x00, 0x00, 0x00, 0x31, 0x2e, 0x35, 0x2e, 0x30, 0x00, 0x00, 0x00,
  0x00, 0x00, 0x00, 0x00, 0x00, 0x00, 0x00, 0x00, 0x00, 0xef, 0xff, 0xff,
  0x04, 0xef, 0xff, 0xff, 0x08, 0xef, 0xff, 0xff, 0x0c, 0xef, 0xff, 0xff,
  0x16, 0xf4, 0xff, 0xff, 0x04, 0x00, 0x00, 0x00, 0x80, 0x01, 0x00, 0x00,
  0x34, 0xec, 0x24, 0xbf, 0xd4, 0x8e, 0xb2, 0x3d, 0x10, 0xc1, 0x64, 0x3d,
  0x72, 0x61, 0xf8, 0xbb, 0x4c, 0x85, 0xa4, 0x3c, 0xd3, 0xb1, 0x4d, 0x3c,
  0x34, 0x38, 0x33, 0x3f, 0x53, 0xf8, 0x3c, 0x3d, 0xb7, 0xe3, 0x34, 0x3e,
  0xe6, 0x15, 0x89, 0xbe, 0x15, 0x1d, 0xca, 0x3d, 0xfe, 0x47, 0x6b, 0xbe,
  0x36, 0xcb, 0x16, 0x3f, 0x46, 0x80, 0x8e, 0xbd, 0xbc, 0x76, 0xb5, 0xbd,
  0xd1, 0x5d, 0xda, 0xbe, 0xc7, 0xb1, 0x5c, 0x3c, 0x83, 0x95, 0xa3, 0x3b,
  0x77, 0xd6, 0x5f, 0x3e, 0x89, 0xa2, 0x3b, 0xbe, 0xfa, 0x57, 0x31, 0xbf,
  0x2d, 0xe7, 0x7f, 0xbe, 0xe4, 0x46, 0x08, 0x3e, 0x3b, 0x9f, 0x2a, 0xbe,
  0xbb, 0xc5, 0x19, 0xbf, 0xe2, 0x4d, 0x86, 0x3e, 0x91, 0x47, 0x72, 0xbd,
  0xf9, 0x82, 0xc3, 0xbd, 0x47, 0xa1, 0xd3, 0xbd, 0xe1, 0xc3, 0x5d, 0x3c,
  0x12, 0xf2, 0xcd, 0xbe, 0x88, 0x31, 0xaf, 0x3e, 0x9d, 0x1b, 0xbe, 0xbd,
  0x80, 0xc1, 0x79, 0x3b, 0xc3, 0xee, 0x8b, 0xbe, 0xcc, 0x72, 0xa4, 0xbe,
  0x24, 0x2d, 0x0e, 0xbf, 0xef, 0x5b, 0xef, 0x3d, 0x2d, 0x0a, 0x26, 0x3e,
  0x1c, 0xed, 0x8e, 0xbe, 0x1b, 0xb6, 0x13, 0x3e, 0x67, 0xa6, 0x3c, 0xbe,
  0xd7, 0x0d, 0xc0, 0xbe, 0x1c, 0x92, 0x8c, 0xbe, 0x66, 0xe0, 0x8d, 0x3c,
  0x37, 0xf4, 0x5c, 0xbe, 0x7e, 0xa9, 0x17, 0x3e, 0xf1, 0x6c, 0x63, 0xbe,
  0x82, 0xeb, 0x0d, 0xbf, 0xa9, 0xfa, 0x25, 0x3d, 0x1b, 0x5a, 0x24, 0x3e,
  0x18, 0x09, 0x45, 0xbe, 0x03, 0x10, 0xc4, 0xbe, 0x64, 0x0e, 0xb6, 0xbd,
  0xd7, 0x60, 0x40, 0xbe, 0xf8, 0xac, 0x1a, 0xbd, 0x44, 0xd9, 0x9a, 0xbe,
  0x76, 0x55, 0x96, 0xbe, 0x60, 0x80, 0x74, 0x3c, 0x4d, 0xa0, 0xc8, 0xbe,
  0x14, 0xc1, 0x98, 0xbd, 0x19, 0xc4, 0x75, 0xbe, 0x40, 0x3b, 0xc8, 0xbe,
  0xc1, 0xb5, 0xed, 0x3e, 0x25, 0x05, 0x4a, 0xbd, 0xc6, 0x98, 0x98, 0x3e,
  0x42, 0x84, 0xa2, 0x3e, 0x94, 0xcf, 0x84, 0x3e, 0x27, 0xec, 0x96, 0x3c,
  0x89, 0x2e, 0xe5, 0xbe, 0x6a, 0x9e, 0x4b, 0xbd, 0x60, 0x79, 0x44, 0x3e,
  0xd6, 0x0b, 0x14, 0xbd, 0xbf, 0x07, 0x63, 0x3d, 0xa3, 0x38, 0x7e, 0xbc,
  0xc5, 0x97, 0x20, 0x3f, 0x08, 0x82, 0x49, 0x3e, 0x68, 0x4e, 0x27, 0xbd,
  0x0a, 0xbd, 0x26, 0x3f, 0x5c, 0xbd, 0x08, 0x3e, 0xc2, 0x09, 0x29, 0xbe,
  0x29, 0x40, 0x34, 0x3f, 0x8c, 0xa0, 0xc0, 0x3e, 0x6b, 0xb9, 0x54, 0xbd,
  0x49, 0xdd, 0xff, 0xbe, 0xe8, 0x39, 0xf9, 0x3c, 0xba, 0xb2, 0xf5, 0x3a,
  0x3a, 0x93, 0xdb, 0x3e, 0x09, 0x32, 0x62, 0x3e, 0x77, 0x5e, 0xeb, 0x3e,
  0x1e, 0x9a, 0x26, 0xbe, 0xfe, 0xc8, 0x89, 0xbe, 0x02, 0xce, 0x11, 0xbe,
  0xf7, 0x0a, 0x1c, 0xbe, 0xc3, 0x76, 0x90, 0xbe, 0xd3, 0x2d, 0x7b, 0x3e,
  0xa2, 0xf5, 0xff, 0xff, 0x04, 0x00, 0x00, 0x00, 0x80, 0x00, 0x00, 0x00,
  0x92, 0xf8, 0x61, 0x3e, 0xf8, 0x40, 0x13, 0xbd, 0xa6, 0x96, 0x37, 0x3d,
  0xd3, 0xb7, 0x72, 0xbd, 0x53, 0x50, 0x68, 0xbc, 0x81, 0x05, 0x99, 0x3e,
  0x46, 0xfc, 0xe3, 0xbc, 0x8b, 0xab, 0xa4, 0x3e, 0xc8, 0xb8, 0x8e, 0x3e,
  0x79, 0x80, 0x23, 0xbc, 0xca, 0x9e, 0xb0, 0x3e, 0x00, 0x00, 0x00, 0x00,
  0xf2, 0xc0, 0x58, 0x3e, 0x7a, 0x7f, 0xbb, 0x3e, 0x95, 0x86, 0xa7, 0xbb,
  0x7e, 0x64, 0xc7, 0x3e, 0x65, 0x0a, 0xab, 0x3e, 0x00, 0x00, 0x00, 0x00,
  0x00, 0x00, 0x00, 0x00, 0x00, 0x00, 0x00, 0x00, 0x00, 0x00, 0x00, 0x00,
  0x0b, 0x9c, 0x59, 0x3c, 0x11, 0x93, 0xb8, 0xbd, 0xef, 0x2e, 0xb0, 0x3e,
  0x9a, 0x11, 0x38, 0xbd, 0x0e, 0x42, 0xc4, 0xbd, 0xd7, 0xbc, 0xb7, 0x3d,
  0x92, 0x3f, 0x14, 0xbe, 0xa9, 0x37, 0xaf, 0x3e, 0x42, 0xd1, 0x7f, 0x3d,
  0x00, 0x00, 0x00, 0x00, 0x6d, 0x58, 0xb0, 0x3e, 0x2e, 0xf6, 0xff, 0xff,
  0x04, 0x00, 0x00, 0x00, 0x40, 0x00, 0x00, 0x00, 0x68, 0xdb, 0xcf, 0x3d,
  0x68, 0x42, 0x1f, 0x3e, 0x2f, 0x07, 0x9e, 0x3e, 0x49, 0x57, 0x19, 0xbc,
  0x55, 0xff, 0x95, 0x3d, 0x94, 0x99, 0x6b, 0xbd, 0x64, 0x57, 0x6c, 0x3e,
  0xef, 0x66, 0xd2, 0x3d, 0xf7, 0xd4, 0x88, 0x3e, 0xae, 0xf9, 0x9a, 0x3e,
  0x53, 0x63, 0x48, 0x3c, 0x8e, 0x57, 0x32, 0xbd, 0xfa, 0xa6, 0x6f, 0x3e,
  0x40, 0xb6, 0x9d, 0xbd, 0xe8, 0x65, 0xb5, 0xbc, 0x00, 0x00, 0x00, 0x00,
  0x7a, 0xf6, 0xff, 0xff, 0x04, 0x00, 0x00, 0x00, 0x0c, 0x00, 0x00, 0x00,
  0xb1, 0xd2, 0x5e, 0xbe, 0xf9, 0xc3, 0x61, 0xbc, 0x71, 0x4b, 0x60, 0x3e,
  0x92, 0xf6, 0xff, 0xff, 0x04, 0x00, 0x00, 0x00, 0x00, 0x08, 0x00, 0x00,
  0xd0, 0x17, 0x6d, 0x3f, 0xbc, 0xf1, 0x87, 0xbe, 0x4b, 0x5e, 0x10, 0xbe,
  0x76, 0x54, 0xd2, 0x3d, 0xc2, 0x37, 0x4a, 0xbe, 0x24, 0x7b, 0x12, 0x3f,
  0x94, 0x76, 0x14, 0x3f, 0x2f, 0xe3, 0x3d, 0x3e, 0x38, 0x68, 0x29, 0x3f,
  0x76, 0xc5, 0xa0, 0xbe, 0x38, 0xd6, 0xdc, 0x3e, 0x49, 0xfa, 0x9f, 0x3e,
  0x0c, 0xce, 0xc2, 0x3e, 0xbd, 0x48, 0xf5, 0x3e, 0x6c, 0x91, 0x52, 0xbe,
  0xef, 0x55, 0x39, 0x3e, 0x0c, 0x3d, 0x9d, 0x3e, 0xda, 0xd4, 0x3c, 0x3e,
  0x48, 0xd1, 0xc1, 0xbd, 0x90, 0x6a, 0x1e, 0xbe, 0xe0, 0xf8, 0x2f, 0xbd,
  0xb5, 0xb9, 0xae, 0xbe, 0x58, 0xe9, 0xb5, 0x3d, 0xa1, 0xa8, 0x98, 0x3e,
  0xfe, 0x2d, 0x86, 0xbe, 0x76, 0xdb, 0xae, 0xbe, 0x08, 0xf8, 0x11, 0xbf,
  0xad, 0xed, 0x1a, 0xbf, 0x3a, 0xa5, 0x29, 0x3f, 0xdb, 0x19, 0x20, 0xbe,
  0x67, 0x58, 0x43, 0xbe, 0xbe, 0xcd, 0x8b, 0x3c, 0x32, 0x2c, 0x49, 0x3f,
  0x46, 0x6e, 0x8a, 0xbe, 0x7e, 0x09, 0x1f, 0xbf, 0x2c, 0xb2, 0x68, 0xbe,
  0xa0, 0x4a, 0x1b, 0x3e, 0x3b, 0xff, 0xb9, 0x3e, 0xff, 0x60, 0xd7, 0xbd,
  0x30, 0xec, 0xa2, 0x3e, 0x9f, 0xf6, 0x88, 0x3e, 0x49, 0xad, 0x68, 0x3e,
  0xb4, 0x82, 0x21, 0x3f, 0x76, 0x00, 0x45, 0x3e, 0x6a, 0xa6, 0x30, 0x3f,
  0xf8, 0x80, 0x27, 0x3f, 0xb1, 0x38, 0x31, 0x3e, 0xd6, 0x98, 0xea, 0x3e,
  0x54, 0xf9, 0x0f, 0x3f, 0x00, 0x2e, 0x5c, 0x3c, 0x2a, 0x45, 0x74, 0x3e,
  0x94, 0xca, 0x88, 0x3d, 0x88, 0x03, 0x07, 0x3e, 0x28, 0x50, 0x51, 0xbd,
  0xca, 0xa3, 0x13, 0xbe, 0x25, 0x97, 0x2c, 0x3f, 0x04, 0xc0, 0x54, 0xbe,
  0x4f, 0xc2, 0x5f, 0xbd, 0x84, 0x63, 0x56, 0xbe, 0xd4, 0x77, 0xc8, 0xbe,
  0x4c, 0x40, 0x2d, 0x3f, 0xc1, 0x24, 0x5f, 0x3d, 0x40, 0x85, 0x50, 0x3c,
  0x17, 0x8e, 0xe4, 0x3e, 0xc7, 0x93, 0x39, 0x3f, 0x89, 0x9e, 0x75, 0x3d,
  0x17, 0xc2, 0x60, 0xbe, 0x3a, 0xf9, 0x60, 0x3e, 0x8a, 0xa7, 0xfe, 0xbd,
  0xa5, 0x44, 0x39, 0x3f, 0x88, 0x9f, 0x1c, 0xbe, 0x90, 0x05, 0xd0, 0x3e,
  0x1d, 0x67, 0x1c, 0x3f, 0x81, 0x5f, 0x23, 0xbe, 0x0b, 0x17, 0x0b, 0x3f,
  0xd4, 0xf6, 0x99, 0xbe, 0x09, 0x61, 0x18, 0x3f, 0x89, 0x84, 0x2c, 0x3f,
  0x23, 0x41, 0x84, 0xbe, 0xa7, 0xab, 0x3a, 0x3f, 0x4e, 0xaf, 0x80, 0x3f,
  0x34, 0x16, 0x85, 0xbe, 0xaa, 0x91, 0x68, 0x3e, 0xc0, 0x4f, 0xdc, 0x3c,
  0xe0, 0x76, 0xb1, 0xbc, 0x0b, 0x1c, 0x2f, 0xbe, 0xa5, 0x25, 0x31, 0x3e,
  0x2e, 0x10, 0x00, 0x3f, 0x35, 0xfe, 0xc2, 0x3c, 0x8b, 0x00, 0xc5, 0xbe,
  0x0b, 0xe0, 0x04, 0xbf, 0x16, 0x79, 0xbc, 0xbe, 0xe1, 0x64, 0x39, 0x3f,
  0x81, 0x09, 0xd9, 0xbd, 0x3c, 0xec, 0x90, 0xbe, 0x76, 0x99, 0xea, 0x3e,
  0xe6, 0x22, 0xb0, 0xbe, 0x0c, 0x3b, 0xd1, 0x3c, 0xbf, 0x32, 0x38, 0x3e,
  0xd1, 0xed, 0x2b, 0xbe, 0x7f, 0xa1, 0x25, 0x3e, 0xd1, 0x24, 0x19, 0xbf,
  0x67, 0x46, 0x6c, 0x3e, 0x96, 0xf8, 0xe5, 0x3d, 0x50, 0x17, 0x49, 0xbf,
  0x03, 0x4c, 0x4a, 0xbe, 0xaf, 0x72, 0xfd, 0xbe, 0x2f, 0x8f, 0x8e, 0xbe,
  0xce, 0x1e, 0x18, 0xbe, 0xac, 0x34, 0x0c, 0xbf, 0x20, 0x1d, 0x73, 0x3c,
  0x72, 0x9d, 0x9d, 0x3d, 0xe6, 0xb3, 0xdc, 0xbe, 0x1e, 0xbf, 0x74, 0xbe,
  0x5c, 0xf8, 0x22, 0xbe, 0x8b, 0xe2, 0x6f, 0xbe, 0x55, 0x44, 0x8d, 0x3e,
  0x2f, 0x6d, 0xd6, 0x3e, 0xc9, 0xfa, 0xd1, 0x3e, 0x29, 0xb2, 0xfe, 0xbe,
  0xda, 0x58, 0x45, 0xbe, 0xec, 0x4e, 0x01, 0x3e, 0x75, 0x5a, 0x01, 0x3f,
  0xe6, 0x2e, 0x28, 0x3e, 0x08, 0xc5, 0x4b, 0xbf, 0x42, 0x20, 0xef, 0x3c,
  0x80, 0x08, 0x4b, 0xbe, 0xe4, 0xbd, 0x8e, 0xbd, 0x6c, 0xbd, 0x7c, 0xbf,
  0xeb, 0xe1, 0xc2, 0xbe, 0x47, 0x4e, 0x44, 0x3d, 0x6e, 0xdf, 0x32, 0x3e,
  0xc9, 0xc0, 0x85, 0xbe, 0x91, 0xbe, 0xe9, 0x3d, 0x09, 0xf7, 0x73, 0xbe,
  0x7d, 0xb9, 0xbf, 0x3d, 0xab, 0xeb, 0xa5, 0xbe, 0x86, 0xff, 0x88, 0x3e,
  0x17, 0x03, 0x79, 0x3d, 0xe4, 0xcc, 0x77, 0xbe, 0x89, 0x36, 0x9b, 0x3d,
  0x0d, 0xfc, 0xb4, 0x3e, 0x55, 0x73, 0x56, 0x3e, 0x2f, 0xa8, 0xa4, 0x3e,
  0xda, 0x07, 0x3f, 0x3e, 0x93, 0x03, 0x8a, 0x3e, 0x20, 0xda, 0x41, 0xbe,
  0x11, 0xdd, 0x81, 0x3e, 0xbd, 0x2d, 0x96, 0xbe, 0xe7, 0xd1, 0xe6, 0x3d,
  0x03, 0x1d, 0x3c, 0xbe, 0x08, 0x99, 0x1c, 0xbe, 0x3d, 0xb3, 0x2e, 0xbd,
  0x8a, 0x5d, 0x27, 0xbd, 0x93, 0x5c, 0xf5, 0x3e, 0x89, 0xe6, 0x7e, 0xbe,
  0xf0, 0x8e, 0xbe, 0xbe, 0xff, 0xeb, 0xc4, 0x3e, 0x2a, 0x1e, 0x5a, 0x3e,
  0x84, 0x96, 0x29, 0x3e, 0x5e, 0x2d, 0x6c, 0x3d, 0xfa, 0x2d, 0x95, 0xbd,
  0x24, 0x77, 0x28, 0xbe, 0xe0, 0x73, 0x7f, 0x3e, 0x92, 0xfb, 0x38, 0x3e,
  0x16, 0x1a, 0x05, 0xbf, 0xd7, 0x2e, 0xa3, 0xbd, 0xe6, 0x9e, 0x97, 0x3e,
  0x3c, 0xd4, 0xad, 0xbe, 0x76, 0xb5, 0x2c, 0xbe, 0x17, 0x89, 0x79, 0x3c,
  0x2f, 0xb1, 0x0d, 0xbe, 0x84, 0xf7, 0x9c, 0xbc, 0x8e, 0x17, 0x0f, 0xbd,
  0x03, 0x36, 0xb2, 0x3e, 0x3d, 0x34, 0x8b, 0xbe, 0xdd, 0x0d, 0x5f, 0xbe,
  0x92, 0xcc, 0x70, 0x3e, 0x30, 0x5f, 0x97, 0xbc, 0xd3, 0xc9, 0x89, 0x3e,
  0xc2, 0x20, 0x87, 0xbe, 0x94, 0xb6, 0xfc, 0x3c, 0xee, 0xa5, 0xe6, 0x3e,
  0x0d, 0x4b, 0x44, 0xbd, 0xaa, 0x2c, 0x9b, 0xbe, 0xdf, 0xcb, 0x95, 0x3e,
  0x1d, 0x1c, 0xea, 0x3e, 0x62, 0x6c, 0xcb, 0x3d, 0x7a, 0x7e, 0x26, 0xbf,
  0xef, 0xf3, 0x97, 0x3e, 0x1e, 0x8c, 0xa0, 0xbe, 0xad, 0x0c, 0x93, 0xbe,
  0xd2, 0xa1, 0xaa, 0x3e, 0x4e, 0xe2, 0x86, 0xbe, 0xf2, 0x98, 0x29, 0xbc,
  0x9b, 0xb8, 0x9d, 0xbe, 0xdc, 0x1f, 0xc5, 0xbc, 0xf5, 0x52, 0x14, 0x3f,
  0x56, 0xd5, 0xbe, 0x3e, 0x30, 0x72, 0xf9, 0x3e, 0x89, 0x1d, 0x03, 0x3f,
  0xe7, 0x29, 0x8c, 0x3e, 0xf4, 0x5a, 0xcc, 0x3e, 0x12, 0x98, 0x35, 0xbe,
  0x1b, 0x11, 0x41, 0x3f, 0xa4, 0x88, 0x98, 0x3e, 0x3d, 0x2a, 0xfe, 0xbd,
  0x97, 0x5a, 0xdf, 0x3e, 0x4e, 0x51, 0x4a, 0x3e, 0x08, 0x5c, 0x17, 0xbd,
  0x11, 0x58, 0x8b, 0xbe, 0xfc, 0x4f, 0xf1, 0xbd, 0xd6, 0x29, 0x0e, 0x3e,
  0xe1, 0xbc, 0x69, 0xbc, 0x20, 0xa0, 0x4f, 0xbd, 0x5f, 0x25, 0x23, 0x3f,
  0x5c, 0x2d, 0x8d, 0xbc, 0x7c, 0xb6, 0xe7, 0xbe, 0x24, 0x59, 0x48, 0xbc,
  0x03, 0x47, 0x90, 0xbe, 0xb3, 0xda, 0x4c, 0x3f, 0x6d, 0x50, 0x9b, 0x3e,
  0xf4, 0xc2, 0x87, 0xbd, 0x7f, 0x61, 0xc1, 0x3e, 0xcd, 0x11, 0xa0, 0x3f,
  0x9e, 0xb4, 0x90, 0x3e, 0xf9, 0xae, 0x07, 0xbd, 0x07, 0x52, 0x31, 0xbe,
  0xfd, 0xe0, 0x31, 0xbf, 0x2d, 0x18, 0xbe, 0x3e, 0x70, 0xa5, 0xaa, 0x3e,
  0x36, 0x54, 0x0c, 0x3f, 0xaf, 0x4a, 0x20, 0x3f, 0x6c, 0x66, 0xe3, 0x3d,
  0xec, 0x78, 0xee, 0x3e, 0x4d, 0xbc, 0x8b, 0x3e, 0xe8, 0xf0, 0x03, 0x3f,
  0x36, 0xe5, 0x02, 0x3c, 0xcd, 0xbd, 0xa5, 0x3e, 0x59, 0x75, 0x39, 0x3e,
  0x3e, 0xb7, 0x1d, 0x3f, 0x73, 0xe7, 0xa9, 0x3e, 0xab, 0x35, 0x3a, 0xbe,
  0x98, 0x37, 0x4f, 0xbd, 0xa6, 0x70, 0x71, 0x3e, 0xd5, 0xdd, 0x00, 0xbf,
  0x07, 0x96, 0x1a, 0xbf, 0x87, 0xaf, 0x91, 0x3e, 0x61, 0x99, 0x75, 0x3d,
  0x51, 0xf7, 0xff, 0xbe, 0x7f, 0x2c, 0xd8, 0xbe, 0x56, 0xef, 0x02, 0xbf,
  0x42, 0xc8, 0xe5, 0x3e, 0x23, 0xb8, 0xd4, 0xbe, 0xd0, 0x0c, 0x99, 0x3c,
  0x14, 0x50, 0xa4, 0x3d, 0xfb, 0xaa, 0x84, 0xbf, 0xa7, 0x13, 0x20, 0x3e,
  0xfc, 0x40, 0xff, 0x3e, 0xfe, 0x13, 0x2c, 0x3e, 0x8a, 0x0a, 0x34, 0xbe,
  0x71, 0xcc, 0xae, 0x3e, 0xca, 0xbc, 0xa4, 0x3e, 0xc5, 0x9b, 0xbb, 0x3e,
  0x78, 0xda, 0xa7, 0xbe, 0x8f, 0x79, 0x5b, 0x3e, 0x98, 0x0b, 0xe4, 0x3e,
  0x21, 0x90, 0x91, 0x3e, 0x84, 0x80, 0x7a, 0xbe, 0x33, 0x3c, 0xb6, 0x3e,
  0x9b, 0x06, 0xb3, 0xbb, 0x99, 0x75, 0x92, 0x3e, 0x4a, 0xfa, 0x22, 0xbd,
  0xc5, 0xe5, 0xb2, 0x3e, 0x59, 0xc8, 0x99, 0xbe, 0x6c, 0x3d, 0xd7, 0x3d,
  0x94, 0x36, 0xd7, 0xbd, 0x29, 0x00, 0x95, 0x3e, 0xaf, 0xef, 0x0f, 0xbe,
  0xb9, 0x06, 0x08, 0x3f, 0xbe, 0x7a, 0x97, 0x3e, 0x77, 0x2a, 0x58, 0xbe,
  0x43, 0x82, 0x60, 0x3e, 0xe3, 0xdf, 0x32, 0xbe, 0x53, 0x18, 0x80, 0xbd,
  0x58, 0x14, 0x4a, 0x3e, 0x79, 0xef, 0xad, 0xbe, 0x48, 0x46, 0x10, 0x3f,
  0x59, 0x17, 0x76, 0x3e, 0xed, 0x91, 0x9a, 0xbe, 0x36, 0x97, 0x8a, 0xbe,
  0x8c, 0x80, 0x3b, 0x3d, 0x54, 0x78, 0xf9, 0xbd, 0x21, 0x81, 0x8c, 0x3f,
  0x3f, 0x40, 0x1f, 0x3f, 0x9f, 0x42, 0x13, 0x3f, 0xb0, 0xbc, 0x38, 0x3f,
  0x21, 0x65, 0x8d, 0x3e, 0x47, 0x8f, 0x37, 0x39, 0x1e, 0x56, 0x5a, 0xbe,
  0x15, 0x49, 0x00, 0x3f, 0xeb, 0xfc, 0xce, 0x3e, 0x0c, 0x3c, 0xdc, 0x3d,
  0xf9, 0xae, 0x1f, 0x3f, 0xba, 0x99, 0x93, 0x3f, 0x0e, 0x1b, 0xe2, 0xbd,
  0x01, 0x4f, 0x9c, 0x3e, 0x09, 0x1b, 0x11, 0xbe, 0x3c, 0xb1, 0xed, 0x3d,
  0x6d, 0xcc, 0x9b, 0x3c, 0x99, 0x4e, 0x99, 0xbe, 0x85, 0xdf, 0xf3, 0x3e,
  0x4a, 0xb9, 0x5e, 0xbe, 0x0e, 0x24, 0xab, 0xbe, 0x9c, 0xd5, 0x6f, 0x3e,
  0xf1, 0xde, 0xb4, 0xbe, 0x9c, 0x1f, 0x83, 0x3f, 0x88, 0x9b, 0xa5, 0xbe,
  0x1d, 0x06, 0x32, 0xbe, 0x6d, 0x11, 0x08, 0x3f, 0xd8, 0xa1, 0x91, 0x3f,
  0x54, 0x25, 0x6c, 0x3e, 0x4e, 0x63, 0x36, 0xbf, 0xa3, 0xa4, 0x2f, 0xbe,
  0x67, 0x07, 0x0a, 0xbe, 0xec, 0x1e, 0x35, 0x3d, 0xce, 0x96, 0x52, 0xbe,
  0x59, 0x69, 0x9e, 0x3e, 0xbb, 0xcc, 0x8a, 0x3e, 0x78, 0x53, 0x5e, 0x3d,
  0xb2, 0x92, 0x8e, 0x3e, 0xc0, 0x15, 0x53, 0x3c, 0xff, 0x7a, 0x22, 0x3f,
  0xd1, 0x94, 0x92, 0x3e, 0x60, 0x9c, 0xcb, 0xbc, 0x66, 0xfa, 0x37, 0x3e,
  0x17, 0x3f, 0xee, 0x3e, 0x91, 0x3a, 0x7f, 0xbe, 0xb6, 0x11, 0x3a, 0x3e,
  0xc3, 0xd6, 0x8f, 0x3e, 0x3c, 0xbd, 0xfc, 0x3d, 0x20, 0xcd, 0xaf, 0xbe,
  0xde, 0x33, 0x2b, 0xbe, 0xba, 0xed, 0x93, 0x3e, 0x49, 0x4a, 0x65, 0xbe,
  0x4a, 0x2b, 0x34, 0xbf, 0x29, 0x04, 0x43, 0xbd, 0xb6, 0x31, 0xaa, 0xbe,
  0x25, 0x80, 0x34, 0x3f, 0x21, 0x57, 0xe0, 0xbc, 0x3f, 0x4b, 0xad, 0x3e,
  0xbd, 0x48, 0x6c, 0x3d, 0x13, 0x09, 0xd4, 0x3d, 0x9f, 0x78, 0x46, 0xbd,
  0x9b, 0xb0, 0x40, 0xbe, 0x80, 0x58, 0x1f, 0xbe, 0xd0, 0xf7, 0xff, 0x3d,
  0x50, 0x8c, 0x83, 0xbe, 0x54, 0x07, 0xac, 0xbe, 0x42, 0x32, 0xca, 0xbe,
  0xaa, 0xbe, 0xa0, 0xbe, 0x21, 0x91, 0x44, 0x3d, 0x90, 0xca, 0xf0, 0x3d,
  0xb0, 0xce, 0xc7, 0x3c, 0xa9, 0x4b, 0x8f, 0x3e, 0xc2, 0x25, 0x0c, 0x3d,
  0x15, 0xd0, 0x73, 0x3e, 0x4b, 0xa0, 0x56, 0x3e, 0xdb, 0xc7, 0x2d, 0xbd,
  0xe7, 0x70, 0xb4, 0x3e, 0x24, 0xf7, 0x6e, 0xbe, 0xd9, 0x72, 0x9e, 0xbe,
  0x74, 0x3e, 0x85, 0xbe, 0x7c, 0x4c, 0x46, 0x3d, 0x2b, 0xbf, 0x7b, 0xbe,
  0xeb, 0xcd, 0xd7, 0xbd, 0xfe, 0x90, 0x2a, 0x3e, 0xbb, 0x56, 0x91, 0x3d,
  0x49, 0x99, 0x87, 0xbe, 0xa5, 0x88, 0x6f, 0xbe, 0xc1, 0x99, 0xab, 0x3b,
  0x19, 0xa1, 0xe7, 0x3c, 0x7b, 0x35, 0x62, 0xbe, 0xd0, 0x2b, 0x15, 0x3e,
  0xe7, 0x5e, 0x9c, 0x3d, 0x7d, 0x3b, 0x71, 0x3c, 0x1e, 0x58, 0x57, 0xbe,
  0x81, 0xe3, 0xbe, 0x3e, 0x92, 0x2f, 0x9e, 0x3d, 0xe6, 0xc7, 0x10, 0x3f,
  0x65, 0x38, 0xc1, 0x3e, 0x7f, 0x03, 0xf6, 0x3e, 0x99, 0x47, 0x17, 0x3e,
  0x00, 0xbf, 0xd8, 0x3c, 0xb2, 0x0d, 0xd6, 0x3e, 0xd0, 0x8c, 0xfc, 0x3d,
  0x59, 0xb1, 0xfa, 0x3e, 0xd2, 0xee, 0x1a, 0x3f, 0x4f, 0xb2, 0x77, 0xbe,
  0x63, 0xd5, 0xa5, 0xba, 0x87, 0xc9, 0x56, 0x3f, 0x09, 0xd0, 0x54, 0xbe,
  0x95, 0xcc, 0x92, 0xbe, 0xbe, 0x3f, 0x44, 0x3e, 0x9b, 0xaa, 0xb4, 0x3e,
  0xc6, 0x12, 0x01, 0xbe, 0xcf, 0x53, 0xb0, 0xbe, 0x26, 0xc0, 0x46, 0x3e,
  0xa3, 0x9c, 0x45, 0xbd, 0x5d, 0xa6, 0xbe, 0xbe, 0x9e, 0xb5, 0x19, 0x3e,
  0xef, 0x0d, 0xd6, 0xbe, 0x75, 0x29, 0x9c, 0x3f, 0x4e, 0x97, 0x2a, 0x3d,
  0x04, 0xf2, 0x9e, 0xbe, 0x4d, 0xd9, 0x3e, 0x3e, 0x4c, 0x74, 0xca, 0xbe,
  0xe7, 0x59, 0x8f, 0x3c, 0xd8, 0x56, 0xe5, 0x3e, 0x71, 0x36, 0x5e, 0xbe,
  0xfb, 0x89, 0x9a, 0x3c, 0x27, 0xa8, 0x18, 0xbf, 0xc7, 0xfd, 0x01, 0xbf,
  0x46, 0x0d, 0xe0, 0xbe, 0x58, 0xbc, 0x15, 0xbf, 0xfc, 0xfa, 0x74, 0x3e,
  0x8c, 0xd0, 0x31, 0x3e, 0x52, 0x98, 0x8e, 0xbe, 0x90, 0x91, 0xc2, 0xbe,
  0x56, 0x1c, 0xc0, 0xbd, 0xfa, 0x1c, 0x17, 0x3e, 0x3c, 0x81, 0x1f, 0xbe,
  0x2a, 0x20, 0x22, 0xbf, 0x71, 0xe7, 0x57, 0xbe, 0x5d, 0x52, 0x98, 0x3e,
  0x32, 0xfe, 0x21, 0x3e, 0xb8, 0x2d, 0x21, 0xbd, 0x06, 0x3c, 0x54, 0x3e,
  0x21, 0x2b, 0xd4, 0x3e, 0xb8, 0xe4, 0x1e, 0xbf, 0xc0, 0xf7, 0x95, 0xbe,
  0x36, 0xe6, 0xbf, 0x3e, 0x17, 0x2c, 0x97, 0xbd, 0x76, 0x2d, 0xbd, 0x3e,
  0x6a, 0xcf, 0xad, 0xbf, 0xbb, 0xb0, 0xd3, 0x3d, 0x5a, 0x55, 0x7e, 0x3e,
  0x1e, 0xee, 0x17, 0x3e, 0xc7, 0x4a, 0xb3, 0xbe, 0x86, 0x33, 0xf7, 0xbd,
  0x37, 0x45, 0xf8, 0x3e, 0x7b, 0xd4, 0x84, 0x3e, 0x44, 0xbd, 0x7e, 0x3e,
  0xb4, 0xdb, 0xb2, 0xbe, 0xa1, 0x88, 0xa2, 0xbe, 0x32, 0x20, 0xba, 0x3e,
  0x32, 0x79, 0x62, 0xbe, 0x23, 0x1e, 0x61, 0x3c, 0x30, 0x55, 0x79, 0x3c,
  0x96, 0x30, 0x88, 0xbe, 0x87, 0x3b, 0x65, 0xbe, 0x45, 0x33, 0x68, 0xbe,
  0x10, 0x44, 0x10, 0x3e, 0x90, 0x17, 0x55, 0x3e, 0xe1, 0x9a, 0xbe, 0x3d,
  0xa1, 0xc4, 0x9c, 0xbe, 0xe3, 0x91, 0x56, 0xbe, 0x77, 0x88, 0x8e, 0xbe,
  0x9a, 0x74, 0x68, 0xbe, 0xb8, 0x68, 0x92, 0x3e, 0xd6, 0xfe, 0x93, 0xbd,
  0xca, 0xd4, 0xb8, 0xbe, 0x22, 0xd8, 0xa2, 0xbd, 0x25, 0xb9, 0xbc, 0x3d,
  0x34, 0x66, 0x61, 0x3e, 0xb3, 0xb6, 0xf7, 0x3c, 0x28, 0x26, 0x0f, 0xbf,
  0xcd, 0xc2, 0xa6, 0x3e, 0x7d, 0x28, 0x3c, 0xbe, 0x0c, 0xed, 0x3a, 0xbe,
  0x0d, 0x96, 0x83, 0x3e, 0x55, 0xd8, 0x84, 0xbe, 0xcc, 0x8f, 0x61, 0xbe,
  0x48, 0x67, 0x64, 0x3d, 0x73, 0xea, 0x35, 0xbe, 0xb4, 0xe9, 0x8e, 0xbd,
  0x05, 0xf8, 0x91, 0x3e, 0xc0, 0xb3, 0x21, 0xbc, 0x21, 0xae, 0x99, 0xbe,
  0x54, 0x7b, 0x8d, 0xbd, 0x2b, 0xcf, 0xa9, 0x3e, 0x33, 0x1a, 0x8a, 0xbe,
  0x51, 0xf4, 0x76, 0xbe, 0x48, 0x2e, 0xdd, 0x3d, 0x16, 0x36, 0x64, 0x3e,
  0x3a, 0xe3, 0x38, 0x3e, 0x14, 0x8c, 0x06, 0xbe, 0xfa, 0x84, 0x70, 0xbe,
  0x86, 0x54, 0x1b, 0x3e, 0x00, 0x78, 0x10, 0xba, 0x40, 0xd3, 0xa0, 0xbb,
  0x06, 0xb1, 0x2c, 0x3e, 0xff, 0x72, 0x91, 0x3e, 0x25, 0x76, 0x15, 0xbe,
  0xa8, 0xab, 0x84, 0x3d, 0x1c, 0x8f, 0xea, 0xbd, 0x90, 0xf2, 0x85, 0x3d,
  0xc4, 0x60, 0x93, 0xbe, 0x0b, 0x3f, 0x74, 0xbe, 0x10, 0x59, 0x13, 0xbd,
  0xb4, 0x79, 0xad, 0xbd, 0x1c, 0x8a, 0xc8, 0xbd, 0x9e, 0xfe, 0xff, 0xff,
  0x04, 0x00, 0x00, 0x00, 0xc0, 0x00, 0x00, 0x00, 0xd6, 0x6d, 0xba, 0xbd,
  0xe5, 0x8b, 0x83, 0xbf, 0x39, 0xb2, 0xa5, 0xbf, 0x54, 0x70, 0xa4, 0xbe,
  0x5e, 0xcd, 0x0d, 0x3f, 0x50, 0x60, 0x1c, 0x3f, 0x6e, 0x16, 0xcf, 0xbe,
  0x83, 0x8b, 0x42, 0xbe, 0x1d, 0x38, 0xa2, 0xbe, 0x9e, 0x70, 0xce, 0xbf,
  0xc2, 0x70, 0x7b, 0x3d, 0x1d, 0x3a, 0x94, 0x3d, 0xd3, 0x37, 0xef, 0xbe,
  0xe5, 0x90, 0x41, 0x3f, 0xa5, 0xb3, 0x39, 0x3f, 0x4f, 0x55, 0x9d, 0xbe,
  0xef, 0x70, 0x86, 0x3f, 0x7c, 0x82, 0xb0, 0x3e, 0x72, 0x7a, 0x90, 0x3c,
  0xc3, 0xae, 0x2f, 0x3f, 0xb7, 0xab, 0x14, 0xbf, 0xfd, 0xc1, 0x17, 0xbf,
  0xd2, 0x45, 0x09, 0x3f, 0xdb, 0xc7, 0xa7, 0x3f, 0xbd, 0xe8, 0x01, 0xbf,
  0xb8, 0x0d, 0x0a, 0x3d, 0x7a, 0xf7, 0xa4, 0x3f, 0x5c, 0x31, 0x02, 0xbf,
  0x69, 0xfa, 0xe9, 0x3e, 0x4f, 0x8f, 0x2d, 0x3f, 0x3a, 0x63, 0x0e, 0xbf,
  0xb6, 0xdc, 0xff, 0xbe, 0x16, 0xc2, 0xe2, 0xbf, 0xb8, 0x8b, 0x2d, 0xbd,
  0x19, 0x85, 0x0d, 0xbe, 0x64, 0xe2, 0x28, 0xbf, 0x45, 0x81, 0x14, 0x3f,
  0xbc, 0xad, 0x13, 0xbf, 0x1b, 0x52, 0x0e, 0x3f, 0x57, 0xc1, 0xdd, 0xbf,
  0x8e, 0x97, 0x17, 0x3f, 0xcb, 0x9f, 0x97, 0x3e, 0x0c, 0xbb, 0xca, 0xbf,
  0xbf, 0xd4, 0xa3, 0xbe, 0x51, 0xda, 0x2d, 0x3f, 0xa8, 0xcf, 0x15, 0xbf,
  0x80, 0x42, 0x1e, 0xbe, 0x7f, 0xe2, 0x0d, 0x3f, 0x64, 0xfa, 0xff, 0xff,
  0x68, 0xfa, 0xff, 0xff, 0x0f, 0x00, 0x00, 0x00, 0x4d, 0x4c, 0x49, 0x52,
  0x20, 0x43, 0x6f, 0x6e, 0x76, 0x65, 0x72, 0x74, 0x65, 0x64, 0x2e, 0x00,
  0x01, 0x00, 0x00, 0x00, 0x14, 0x00, 0x00, 0x00, 0x00, 0x00, 0x0e, 0x00,
  0x18, 0x00, 0x14, 0x00, 0x10, 0x00, 0x0c, 0x00, 0x08, 0x00, 0x04, 0x00,
  0x0e, 0x00, 0x00, 0x00, 0x14, 0x00, 0x00, 0x00, 0x1c, 0x00, 0x00, 0x00,
  0x24, 0x01, 0x00, 0x00, 0x28, 0x01, 0x00, 0x00, 0x2c, 0x01, 0x00, 0x00,
  0x04, 0x00, 0x00, 0x00, 0x6d, 0x61, 0x69, 0x6e, 0x00, 0x00, 0x00, 0x00,
  0x04, 0x00, 0x00, 0x00, 0xcc, 0x00, 0x00, 0x00, 0x84, 0x00, 0x00, 0x00,
  0x50, 0x00, 0x00, 0x00, 0x14, 0x00, 0x00, 0x00, 0x00, 0x00, 0x0e, 0x00,
  0x1a, 0x00, 0x14, 0x00, 0x10, 0x00, 0x0c, 0x00, 0x0b, 0x00, 0x04, 0x00,
  0x0e, 0x00, 0x00, 0x00, 0x1c, 0x00, 0x00, 0x00, 0x00, 0x00, 0x00, 0x09,
  0x1c, 0x00, 0x00, 0x00, 0x20, 0x00, 0x00, 0x00, 0x01, 0x00, 0x00, 0x00,
  0x00, 0x00, 0x06, 0x00, 0x08, 0x00, 0x04, 0x00, 0x06, 0x00, 0x00, 0x00,
  0x00, 0x00, 0x80, 0x3f, 0x01, 0x00, 0x00, 0x00, 0x0a, 0x00, 0x00, 0x00,
  0x01, 0x00, 0x00, 0x00, 0x09, 0x00, 0x00, 0x00, 0x9a, 0xff, 0xff, 0xff,
  0x10, 0x00, 0x00, 0x00, 0x00, 0x00, 0x00, 0x08, 0x0c, 0x00, 0x00, 0x00,
  0x10, 0x00, 0x00, 0x00, 0x2c, 0xfb, 0xff, 0xff, 0x01, 0x00, 0x00, 0x00,
  0x09, 0x00, 0x00, 0x00, 0x03, 0x00, 0x00, 0x00, 0x08, 0x00, 0x00, 0x00,
  0x01, 0x00, 0x00, 0x00, 0x03, 0x00, 0x00, 0x00, 0xca, 0xff, 0xff, 0xff,
  0x10, 0x00, 0x00, 0x00, 0x00, 0x00, 0x00, 0x08, 0x10, 0x00, 0x00, 0x00,
  0x14, 0x00, 0x00, 0x00, 0xba, 0xff, 0xff, 0xff, 0x00, 0x00, 0x00, 0x01,
  0x01, 0x00, 0x00, 0x00, 0x08, 0x00, 0x00, 0x00, 0x03, 0x00, 0x00, 0x00,
  0x07, 0x00, 0x00, 0x00, 0x02, 0x00, 0x00, 0x00, 0x04, 0x00, 0x00, 0x00,
  0x00, 0x00, 0x0e, 0x00, 0x16, 0x00, 0x00, 0x00, 0x10, 0x00, 0x0c, 0x00,
  0x0b, 0x00, 0x04, 0x00, 0x0e, 0x00, 0x00, 0x00, 0x18, 0x00, 0x00, 0x00,
  0x00, 0x00, 0x00, 0x08, 0x18, 0x00, 0x00, 0x00, 0x1c, 0x00, 0x00, 0x00,
  0x00, 0x00, 0x06, 0x00, 0x08, 0x00, 0x07, 0x00, 0x06, 0x00, 0x00, 0x00,
  0x00, 0x00, 0x00, 0x01, 0x01, 0x00, 0x00, 0x00, 0x07, 0x00, 0x00, 0x00,
  0x03, 0x00, 0x00, 0x00, 0x00, 0x00, 0x00, 0x00, 0x06, 0x00, 0x00, 0x00,
  0x05, 0x00, 0x00, 0x00, 0x01, 0x00, 0x00, 0x00, 0x0a, 0x00, 0x00, 0x00,
  0x01, 0x00, 0x00, 0x00, 0x00, 0x00, 0x00, 0x00, 0x0b, 0x00, 0x00, 0x00,
  0xfc, 0x03, 0x00, 0x00, 0xa4, 0x03, 0x00, 0x00, 0x4c, 0x03, 0x00, 0x00,
  0x10, 0x03, 0x00, 0x00, 0xb4, 0x02, 0x00, 0x00, 0x5c, 0x02, 0x00, 0x00,
  0x10, 0x02, 0x00, 0x00, 0x7c, 0x01, 0x00, 0x00, 0xe0, 0x00, 0x00, 0x00,
  0x60, 0x00, 0x00, 0x00, 0x04, 0x00, 0x00, 0x00, 0x46, 0xfc, 0xff, 0xff,
  0x00, 0x00, 0x00, 0x01, 0x14, 0x00, 0x00, 0x00, 0x1c, 0x00, 0x00, 0x00,
  0x1c, 0x00, 0x00, 0x00, 0x0b, 0x00, 0x00, 0x00, 0x34, 0x00, 0x00, 0x00,
  0x02, 0x00, 0x00, 0x00, 0xff, 0xff, 0xff, 0xff, 0x03, 0x00, 0x00, 0x00,
  0x30, 0xfc, 0xff, 0xff, 0x1b, 0x00, 0x00, 0x00, 0x53, 0x74, 0x61, 0x74,
  0x65, 0x66, 0x75, 0x6c, 0x50, 0x61, 0x72, 0x74, 0x69, 0x74, 0x69, 0x6f,
  0x6e, 0x65, 0x64, 0x43, 0x61, 0x6c, 0x6c, 0x5f, 0x31, 0x3a, 0x30, 0x00,
  0x02, 0x00, 0x00, 0x00, 0x01, 0x00, 0x00, 0x00, 0x03, 0x00, 0x00, 0x00,
  0x9e, 0xfc, 0xff, 0xff, 0x00, 0x00, 0x00, 0x01, 0x14, 0x00, 0x00, 0x00,
  0x1c, 0x00, 0x00, 0x00, 0x1c, 0x00, 0x00, 0x00, 0x0a, 0x00, 0x00, 0x00,
  0x58, 0x00, 0x00, 0x00, 0x02, 0x00, 0x00, 0x00, 0xff, 0xff, 0xff, 0xff,
  0x03, 0x00, 0x00, 0x00, 0x88, 0xfc, 0xff, 0xff, 0x3c, 0x00, 0x00, 0x00,
  0x73, 0x65, 0x71, 0x75, 0x65, 0x6e, 0x74, 0x69, 0x61, 0x6c, 0x5f, 0x31,
  0x2f, 0x64, 0x65, 0x6e, 0x73, 0x65, 0x5f, 0x32, 0x5f, 0x31, 0x2f, 0x4d,
  0x61, 0x74, 0x4d, 0x75, 0x6c, 0x3b, 0x73, 0x65, 0x71, 0x75, 0x65, 0x6e,
  0x74, 0x69, 0x61, 0x6c, 0x5f, 0x31, 0x2f, 0x64, 0x65, 0x6e, 0x73, 0x65,
  0x5f, 0x32, 0x5f, 0x31, 0x2f, 0x42, 0x69, 0x61, 0x73, 0x41, 0x64, 0x64,
  0x00, 0x00, 0x00, 0x00, 0x02, 0x00, 0x00, 0x00, 0x01, 0x00, 0x00, 0x00,
  0x03, 0x00, 0x00, 0x00, 0x1a, 0xfd, 0xff, 0xff, 0x00, 0x00, 0x00, 0x01,
  0x14, 0x00, 0x00, 0x00, 0x1c, 0x00, 0x00, 0x00, 0x1c, 0x00, 0x00, 0x00,
  0x09, 0x00, 0x00, 0x00, 0x74, 0x00, 0x00, 0x00, 0x02, 0x00, 0x00, 0x00,
  0xff, 0xff, 0xff, 0xff, 0x10, 0x00, 0x00, 0x00, 0x04, 0xfd, 0xff, 0xff,
  0x58, 0x00, 0x00, 0x00, 0x73, 0x65, 0x71, 0x75, 0x65, 0x6e, 0x74, 0x69,
  0x61, 0x6c, 0x5f, 0x31, 0x2f, 0x64, 0x65, 0x6e, 0x73, 0x65, 0x5f, 0x31,
  0x5f, 0x32, 0x2f, 0x4d, 0x61, 0x74, 0x4d, 0x75, 0x6c, 0x3b, 0x73, 0x65,
  0x71, 0x75, 0x65, 0x6e, 0x74, 0x69, 0x61, 0x6c, 0x5f, 0x31, 0x2f, 0x64,
  0x65, 0x6e, 0x73, 0x65, 0x5f, 0x31, 0x5f, 0x32, 0x2f, 0x52, 0x65, 0x6c,
  0x75, 0x3b, 0x73, 0x65, 0x71, 0x75, 0x65, 0x6e, 0x74, 0x69, 0x61, 0x6c,
  0x5f, 0x31, 0x2f, 0x64, 0x65, 0x6e, 0x73, 0x65, 0x5f, 0x31, 0x5f, 0x32,
  0x2f, 0x42, 0x69, 0x61, 0x73, 0x41, 0x64, 0x64, 0x00, 0x00, 0x00, 0x00,
  0x02, 0x00, 0x00, 0x00, 0x01, 0x00, 0x00, 0x00, 0x10, 0x00, 0x00, 0x00,
  0xb2, 0xfd, 0xff, 0xff, 0x00, 0x00, 0x00, 0x01, 0x14, 0x00, 0x00, 0x00,
  0x1c, 0x00, 0x00, 0x00, 0x1c, 0x00, 0x00, 0x00, 0x08, 0x00, 0x00, 0x00,
  0x6c, 0x00, 0x00, 0x00, 0x02, 0x00, 0x00, 0x00, 0xff, 0xff, 0xff, 0xff,
  0x20, 0x00, 0x00, 0x00, 0x9c, 0xfd, 0xff, 0xff, 0x52, 0x00, 0x00, 0x00,
  0x73, 0x65, 0x71, 0x75, 0x65, 0x6e, 0x74, 0x69, 0x61, 0x6c, 0x5f, 0x31,
  0x2f, 0x64, 0x65, 0x6e, 0x73, 0x65, 0x5f, 0x31, 0x2f, 0x4d, 0x61, 0x74,
  0x4d, 0x75, 0x6c, 0x3b, 0x73, 0x65, 0x71, 0x75, 0x65, 0x6e, 0x74, 0x69,
  0x61, 0x6c, 0x5f, 0x31, 0x2f, 0x64, 0x65, 0x6e, 0x73, 0x65, 0x5f, 0x31,
  0x2f, 0x52, 0x65, 0x6c, 0x75, 0x3b, 0x73, 0x65, 0x71, 0x75, 0x65, 0x6e,
  0x74, 0x69, 0x61, 0x6c, 0x5f, 0x31, 0x2f, 0x64, 0x65, 0x6e, 0x73, 0x65,
  0x5f, 0x31, 0x2f, 0x42, 0x69, 0x61, 0x73, 0x41, 0x64, 0x64, 0x00, 0x00,
  0x02, 0x00, 0x00, 0x00, 0x01, 0x00, 0x00, 0x00, 0x20, 0x00, 0x00, 0x00,
  0x96, 0xfe, 0xff, 0xff, 0x00, 0x00, 0x00, 0x01, 0x10, 0x00, 0x00, 0x00,
  0x10, 0x00, 0x00, 0x00, 0x07, 0x00, 0x00, 0x00, 0x28, 0x00, 0x00, 0x00,
  0x1c, 0xfe, 0xff, 0xff, 0x1b, 0x00, 0x00, 0x00, 0x73, 0x65, 0x71, 0x75,
  0x65, 0x6e, 0x74, 0x69, 0x61, 0x6c, 0x5f, 0x31, 0x2f, 0x64, 0x65, 0x6e,
  0x73, 0x65, 0x5f, 0x31, 0x2f, 0x4d, 0x61, 0x74, 0x4d, 0x75, 0x6c, 0x00,
  0x02, 0x00, 0x00, 0x00, 0x20, 0x00, 0x00, 0x00, 0x03, 0x00, 0x00, 0x00,
  0xde, 0xfe, 0xff, 0xff, 0x00, 0x00, 0x00, 0x01, 0x10, 0x00, 0x00, 0x00,
  0x10, 0x00, 0x00, 0x00, 0x06, 0x00, 0x00, 0x00, 0x38, 0x00, 0x00, 0x00,
  0x64, 0xfe, 0xff, 0xff, 0x2b, 0x00, 0x00, 0x00, 0x73, 0x65, 0x71, 0x75,
  0x65, 0x6e, 0x74, 0x69, 0x61, 0x6c, 0x5f, 0x31, 0x2f, 0x64, 0x65, 0x6e,
  0x73, 0x65, 0x5f, 0x31, 0x2f, 0x42, 0x69, 0x61, 0x73, 0x41, 0x64, 0x64,
  0x2f, 0x52, 0x65, 0x61, 0x64, 0x56, 0x61, 0x72, 0x69, 0x61, 0x62, 0x6c,
  0x65, 0x4f, 0x70, 0x00, 0x01, 0x00, 0x00, 0x00, 0x20, 0x00, 0x00, 0x00,
  0x32, 0xff, 0xff, 0xff, 0x00, 0x00, 0x00, 0x01, 0x10, 0x00, 0x00, 0x00,
  0x10, 0x00, 0x00, 0x00, 0x05, 0x00, 0x00, 0x00, 0x3c, 0x00, 0x00, 0x00,
  0xb8, 0xfe, 0xff, 0xff, 0x2d, 0x00, 0x00, 0x00, 0x73, 0x65, 0x71, 0x75,
  0x65, 0x6e, 0x74, 0x69, 0x61, 0x6c, 0x5f, 0x31, 0x2f, 0x64, 0x65, 0x6e,
  0x73, 0x65, 0x5f, 0x31, 0x5f, 0x32, 0x2f, 0x42, 0x69, 0x61, 0x73, 0x41,
  0x64, 0x64, 0x2f, 0x52, 0x65, 0x61, 0x64, 0x56, 0x61, 0x72, 0x69, 0x61,
  0x62, 0x6c, 0x65, 0x4f, 0x70, 0x00, 0x00, 0x00, 0x01, 0x00, 0x00, 0x00,
  0x10, 0x00, 0x00, 0x00, 0x8a, 0xff, 0xff, 0xff, 0x00, 0x00, 0x00, 0x01,
  0x10, 0x00, 0x00, 0x00, 0x10, 0x00, 0x00, 0x00, 0x04, 0x00, 0x00, 0x00,
  0x1c, 0x00, 0x00, 0x00, 0x10, 0xff, 0xff, 0xff, 0x0f, 0x00, 0x00, 0x00,
  0x61, 0x72, 0x69, 0x74, 0x68, 0x2e, 0x63, 0x6f, 0x6e, 0x73, 0x74, 0x61,
  0x6e, 0x74, 0x32, 0x00, 0x01, 0x00, 0x00, 0x00, 0x03, 0x00, 0x00, 0x00,
  0xc2, 0xff, 0xff, 0xff, 0x00, 0x00, 0x00, 0x01, 0x10, 0x00, 0x00, 0x00,
  0x10, 0x00, 0x00, 0x00, 0x03, 0x00, 0x00, 0x00, 0x1c, 0x00, 0x00, 0x00,
  0x48, 0xff, 0xff, 0xff, 0x0f, 0x00, 0x00, 0x00, 0x61, 0x72, 0x69, 0x74,
  0x68, 0x2e, 0x63, 0x6f, 0x6e, 0x73, 0x74, 0x61, 0x6e, 0x74, 0x31, 0x00,
  0x02, 0x00, 0x00, 0x00, 0x10, 0x00, 0x00, 0x00, 0x20, 0x00, 0x00, 0x00,
  0x00, 0x00, 0x16, 0x00, 0x18, 0x00, 0x14, 0x00, 0x00, 0x00, 0x10, 0x00,
  0x0c, 0x00, 0x08, 0x00, 0x00, 0x00, 0x00, 0x00, 0x00, 0x00, 0x07, 0x00,
  0x16, 0x00, 0x00, 0x00, 0x00, 0x00, 0x00, 0x01, 0x10, 0x00, 0x00, 0x00,
  0x10, 0x00, 0x00, 0x00, 0x02, 0x00, 0x00, 0x00, 0x1c, 0x00, 0x00, 0x00,
  0x9c, 0xff, 0xff, 0xff, 0x0e, 0x00, 0x00, 0x00, 0x61, 0x72, 0x69, 0x74,
  0x68, 0x2e, 0x63, 0x6f, 0x6e, 0x73, 0x74, 0x61, 0x6e, 0x74, 0x00, 0x00,
  0x02, 0x00, 0x00, 0x00, 0x03, 0x00, 0x00, 0x00, 0x10, 0x00, 0x00, 0x00,
  0x00, 0x00, 0x16, 0x00, 0x1c, 0x00, 0x18, 0x00, 0x00, 0x00, 0x14, 0x00,
  0x10, 0x00, 0x0c, 0x00, 0x00, 0x00, 0x00, 0x00, 0x08, 0x00, 0x07, 0x00,
  0x16, 0x00, 0x00, 0x00, 0x00, 0x00, 0x00, 0x01, 0x14, 0x00, 0x00, 0x00,
  0x20, 0x00, 0x00, 0x00, 0x20, 0x00, 0x00, 0x00, 0x01, 0x00, 0x00, 0x00,
  0x3c, 0x00, 0x00, 0x00, 0x02, 0x00, 0x00, 0x00, 0xff, 0xff, 0xff, 0xff,
  0x03, 0x00, 0x00, 0x00, 0x04, 0x00, 0x04, 0x00, 0x04, 0x00, 0x00, 0x00,
  0x1e, 0x00, 0x00, 0x00, 0x73, 0x65, 0x72, 0x76, 0x69, 0x6e, 0x67, 0x5f,
  0x64, 0x65, 0x66, 0x61, 0x75, 0x6c, 0x74, 0x5f, 0x6b, 0x65, 0x72, 0x61,
  0x73, 0x5f, 0x74, 0x65, 0x6e, 0x73, 0x6f, 0x72, 0x3a, 0x30, 0x00, 0x00,
  0x02, 0x00, 0x00, 0x00, 0x01, 0x00, 0x00, 0x00, 0x03, 0x00, 0x00, 0x00,
  0x02, 0x00, 0x00, 0x00, 0x20, 0x00, 0x00, 0x00, 0x04, 0x00, 0x00, 0x00,
  0xf4, 0xff, 0xff, 0xff, 0x19, 0x00, 0x00, 0x00, 0x00, 0x00, 0x00, 0x19,
  0x0c, 0x00, 0x0c, 0x00, 0x0b, 0x00, 0x00, 0x00, 0x00, 0x00, 0x04, 0x00,
  0x0c, 0x00, 0x00, 0x00, 0x09, 0x00, 0x00, 0x00, 0x00, 0x00, 0x00, 0x09
};
